TRT-8001-EntropyCalibration2
Input: 3f9849a2
conv1/convolution: 3f5a4f3c
bn_conv1/batchnorm/mul_1: 3d52454f
bn_conv1/batchnorm/add_1: 3d7664a6
activation_1/Relu: 3d896042
block_1a_conv_1/convolution: 3e7c24a5
block_1a_bn_1/batchnorm/mul_1: 3e191336
block_1a_bn_1/batchnorm/add_1: 3dd4fee5
block_1a_relu_1/Relu: 3dd3c6f8
block_1a_conv_2/convolution: 3ece8e82
block_1a_bn_2/batchnorm/mul_1: 3e39a5b7
block_1a_bn_2/batchnorm/add_1: 3e353368
block_1a_conv_shortcut/convolution: 3d95be3d
block_1a_bn_shortcut/batchnorm/mul_1: 3d3727ed
block_1a_bn_shortcut/batchnorm/add_1: 3d443888
add_1/add: 3e12168a
block_1a_relu/Relu: 3dae0bbe
block_1b_conv_1/convolution: 3e9f230e
block_1b_bn_1/batchnorm/mul_1: 3dfaba0d
block_1b_bn_1/batchnorm/add_1: 3dc877a6
block_1b_relu_1/Relu: 3d977d1f
block_1b_conv_2/convolution: 3e2bf6f2
block_1b_bn_2/batchnorm/mul_1: 3e06174a
block_1b_bn_2/batchnorm/add_1: 3ddabbab
block_1b_conv_shortcut/convolution: 3dc38720
block_1b_bn_shortcut/batchnorm/mul_1: 3da5bd8e
block_1b_bn_shortcut/batchnorm/add_1: 3d88c28f
add_2/add: 3e0fb0fc
block_1b_relu/Relu: 3de58149
block_2a_conv_1/convolution: 3e984dd5
block_2a_bn_1/batchnorm/mul_1: 3dbfbb2e
block_2a_bn_1/batchnorm/add_1: 3da0d392
block_2a_relu_1/Relu: 3d778228
block_2a_conv_2/convolution: 3e05847e
block_2a_bn_2/batchnorm/mul_1: 3de5b819
block_2a_bn_2/batchnorm/add_1: 3db3e600
block_2a_conv_shortcut/convolution: 3da21006
block_2a_bn_shortcut/batchnorm/mul_1: 3d089709
block_2a_bn_shortcut/batchnorm/add_1: 3d1c5754
add_3/add: 3dd4012c
block_2a_relu/Relu: 3d9bff46
block_2b_conv_1/convolution: 3e3025be
block_2b_bn_1/batchnorm/mul_1: 3da0f304
block_2b_bn_1/batchnorm/add_1: 3d8e1fef
block_2b_relu_1/Relu: 3d2e11f9
block_2b_conv_2/convolution: 3e1bb79d
block_2b_bn_2/batchnorm/mul_1: 3d84769d
block_2b_bn_2/batchnorm/add_1: 3d432da5
block_2b_conv_shortcut/convolution: 3dc10ccc
block_2b_bn_shortcut/batchnorm/mul_1: 3ce1a799
block_2b_bn_shortcut/batchnorm/add_1: 3cded8a9
add_4/add: 3d6c0d5f
block_2b_relu/Relu: 3ce3c6f1
ssd_loc_0/convolution: 3dcfd5b5
ssd_loc_0/BiasAdd: 3dd722d9
ssd_anchor_0/Const: 3a4ef3e4
FirstDimTile_0: 3a4ef3e4
anchor_reshape_0/Reshape: 3a4ef3e4
block_3a_conv_1/convolution: 3d13dd05
block_3a_bn_1/batchnorm/mul_1: 3d925e4a
block_3a_bn_1/batchnorm/add_1: 3d947938
block_3a_relu_1/Relu: 3d947938
block_3a_conv_2/convolution: 3de29969
block_3a_bn_2/batchnorm/mul_1: 3de054ca
block_3a_bn_2/batchnorm/add_1: 3dba8d7c
block_3a_conv_shortcut/convolution: 3c5fc520
block_3a_bn_shortcut/batchnorm/mul_1: 3d2823e9
block_3a_bn_shortcut/batchnorm/add_1: 3d38864b
add_5/add: 3dbe052f
block_3a_relu/Relu: 3e1255cf
block_3b_conv_1/convolution: 3dd27099
block_3b_bn_1/batchnorm/mul_1: 3d9103ca
block_3b_bn_1/batchnorm/add_1: 3d7fd859
block_3b_relu_1/Relu: 3d6b4738
block_3b_conv_2/convolution: 3da349ca
block_3b_bn_2/batchnorm/mul_1: 3dc64852
block_3b_bn_2/batchnorm/add_1: 3dc166d5
block_3b_conv_shortcut/convolution: 3e2c79e5
block_3b_bn_shortcut/batchnorm/mul_1: 3e1d48f0
block_3b_bn_shortcut/batchnorm/add_1: 3e186e04
add_6/add: 3e4697fd
block_3b_relu/Relu: 3e4697fd
block_4a_conv_1/convolution: 3ddf9453
block_4a_bn_1/batchnorm/mul_1: 3d92ee20
block_4a_bn_1/batchnorm/add_1: 3d7b7bf7
block_4a_relu_1/Relu: 3d7b7bf7
block_4a_conv_2/convolution: 3d88c29a
block_4a_bn_2/batchnorm/mul_1: 3d862c2b
block_4a_bn_2/batchnorm/add_1: 3d7fd432
block_4a_conv_shortcut/convolution: 3e80d029
block_4a_bn_shortcut/batchnorm/mul_1: 3e3b359f
block_4a_bn_shortcut/batchnorm/add_1: 3e3676f1
add_7/add: 3e4669a7
block_4a_relu/Relu: 3e4d581b
block_4b_conv_1/convolution: 3e0d61b2
block_4b_bn_1/batchnorm/mul_1: 3da69a5a
block_4b_bn_1/batchnorm/add_1: 3d8ea5b7
block_4b_relu_1/Relu: 3d6e7d96
block_4b_conv_2/convolution: 3d8faf1a
block_4b_bn_2/batchnorm/mul_1: 3d809e26
block_4b_bn_2/batchnorm/add_1: 3d6c16d7
block_4b_conv_shortcut/convolution: 3e8487ad
block_4b_bn_shortcut/batchnorm/mul_1: 3e3aad76
block_4b_bn_shortcut/batchnorm/add_1: 3e37e636
add_8/add: 3e496a43
block_4b_relu/Relu: 3e4ba09e
ssd_expand_block_0_conv_0/convolution: 3ec1da4a
ssd_expand_block_0_conv_0/BiasAdd: 3eb9c6eb
ssd_expand_block_0_relu_0/Relu: 3e22d544
ssd_expand_block_0_conv_1/convolution: 3e1ecb12
ssd_expand_block_0_bn_1/batchnorm/mul_1: 3dd11a87
ssd_expand_block_0_bn_1/batchnorm/add_1: 3db70071
ssd_expand_block_0_relu_1/Relu: 3d183e1f
ssd_loc_1/convolution: 3d298737
ssd_loc_1/BiasAdd: 3d3098f8
ssd_anchor_1/Const: 3a4fe8c1
FirstDimTile_1: 3a4fe8c1
anchor_reshape_1/Reshape: 3a4ef3e4
ssd_expand_block_1_conv_0/convolution: 3c9d86ed
ssd_expand_block_1_conv_0/BiasAdd: 3c9be43f
ssd_expand_block_1_relu_0/Relu: 3c6d3f00
ssd_expand_block_1_conv_1/convolution: 3caeccfe
ssd_expand_block_1_bn_1/batchnorm/mul_1: 3d6225fb
ssd_expand_block_1_bn_1/batchnorm/add_1: 3d2a651e
ssd_expand_block_1_relu_1/Relu: 3d06edaa
ssd_loc_2/convolution: 3d0db45c
ssd_loc_2/BiasAdd: 3d07c4fc
ssd_anchor_2/Const: 3a4fe8c1
FirstDimTile_2: 3a4fe8c1
anchor_reshape_2/Reshape: 3a4ef3e4
ssd_expand_block_2_conv_0/convolution: 3cc51eb2
ssd_expand_block_2_conv_0/BiasAdd: 3ccbc264
ssd_expand_block_2_relu_0/Relu: 3cdeefcb
ssd_expand_block_2_conv_1/convolution: 3cf0c0ce
ssd_expand_block_2_bn_1/batchnorm/mul_1: 3d73c1fa
ssd_expand_block_2_bn_1/batchnorm/add_1: 3d2f3eda
ssd_expand_block_2_relu_1/Relu: 3d27b33a
ssd_loc_3/convolution: 3d1d4d6f
ssd_loc_3/BiasAdd: 3d18ec24
ssd_anchor_3/Const: 3a4fe8c1
FirstDimTile_3: 3a4fe8c1
anchor_reshape_3/Reshape: 3a4ef3e4
ssd_expand_block_3_conv_0/convolution: 3cc63fe5
ssd_expand_block_3_conv_0/BiasAdd: 3cc0b177
ssd_expand_block_3_relu_0/Relu: 3cb1982f
ssd_expand_block_3_conv_1/convolution: 3c72cf03
ssd_expand_block_3_bn_1/batchnorm/mul_1: 3d92d42d
ssd_expand_block_3_bn_1/batchnorm/add_1: 3d7d6520
ssd_expand_block_3_relu_1/Relu: 3d7fe956
ssd_loc_4/convolution: 3d24807b
ssd_loc_4/BiasAdd: 3d162cb8
ssd_anchor_4/Const: 3a4fe8c1
FirstDimTile_4: 3a4fe8c1
anchor_reshape_4/Reshape: 3a4ef3e4
ssd_expand_block_4_conv_0/convolution: 3c9c940a
ssd_expand_block_4_conv_0/BiasAdd: 3c9deba2
ssd_expand_block_4_relu_0/Relu: 3c9fcc75
ssd_expand_block_4_conv_1/convolution: 3c262926
ssd_expand_block_4_bn_1/batchnorm/mul_1: 3da86da3
ssd_expand_block_4_bn_1/batchnorm/add_1: 3d85b764
ssd_expand_block_4_relu_1/Relu: 3d9262cd
ssd_loc_5/convolution: 3d0feff2
ssd_loc_5/BiasAdd: 3d1bcfb1
ssd_anchor_5/Const: 3a4fe8c1
FirstDimTile_5: 3a4fe8c1
anchor_reshape_5/Reshape: 3a4ef3e4
mbox_priorbox/concat: 3a4ef3e4
anchor_reshape/Reshape: 3a4ef3e4
(Unnamed Layer* 538) [Shuffle]_output: 3a4ef3e4
anchor_data/Reshape: 3a4ef3e4
(Unnamed Layer* 547) [Shuffle]_output: 3dd722d9
loc_reshape_0/Reshape: 3dd722d9
(Unnamed Layer* 556) [Shuffle]_output: 3d3098f8
loc_reshape_1/Reshape: 3dd722d9
(Unnamed Layer* 565) [Shuffle]_output: 3d07c4fc
loc_reshape_2/Reshape: 3dd722d9
(Unnamed Layer* 574) [Shuffle]_output: 3d18ec24
loc_reshape_3/Reshape: 3dd722d9
(Unnamed Layer* 583) [Shuffle]_output: 3d162cb8
loc_reshape_4/Reshape: 3dd722d9
(Unnamed Layer* 592) [Shuffle]_output: 3d1bcfb1
loc_reshape_5/Reshape: 3dd722d9
mbox_loc/concat: 3dd722d9
loc_data/Reshape: 3dd722d9
ssd_conf_0/convolution: 3daf151a
ssd_conf_0/BiasAdd: 3dc109e2
(Unnamed Layer* 613) [Shuffle]_output: 3dc109e2
conf_reshape_0/Reshape: 3e03fb92
ssd_conf_1/convolution: 3dddff94
ssd_conf_1/BiasAdd: 3dec4483
(Unnamed Layer* 626) [Shuffle]_output: 3dec4483
conf_reshape_1/Reshape: 3e03fb92
ssd_conf_2/convolution: 3e11b003
ssd_conf_2/BiasAdd: 3e1a8288
(Unnamed Layer* 639) [Shuffle]_output: 3e1a8288
conf_reshape_2/Reshape: 3e03fb92
ssd_conf_3/convolution: 3e07b3dc
ssd_conf_3/BiasAdd: 3e088b9f
(Unnamed Layer* 652) [Shuffle]_output: 3e088b9f
conf_reshape_3/Reshape: 3e03fb92
ssd_conf_4/convolution: 3de1bf4a
ssd_conf_4/BiasAdd: 3deb1bfb
(Unnamed Layer* 665) [Shuffle]_output: 3deb1bfb
conf_reshape_4/Reshape: 3e03fb92
ssd_conf_5/convolution: 3dc8ea53
ssd_conf_5/BiasAdd: 3dc6af29
(Unnamed Layer* 678) [Shuffle]_output: 3dc6af29
conf_reshape_5/Reshape: 3e03fb92
mbox_conf/concat: 3e03fb92
(Unnamed Layer* 682) [Shuffle]_output: 3e03fb92
mbox_conf_softmax_/Softmax: 3c003871
(Unnamed Layer* 691) [Shuffle]_output: 3c003871
conf_data/Reshape: 3c003871
NMS: 3cc1af5f
NMS_1: 0
