TRT-8400-EntropyCalibration2
input_image: 3f7a9a8a
conv1/convolution: 4049bbf1
bn_conv1/batchnorm/mul_1: 3d7a4501
bn_conv1/batchnorm/add_1: 3e027235
activation_1/Relu: 3dbf185c
block_1a_conv_1/convolution: 3d8b9d92
block_1a_bn_1/batchnorm/mul_1: 3df9d9b4
block_1a_bn_1/batchnorm/add_1: 3e16bf1b
block_1a_relu_1/Relu: 3d886c98
block_1a_conv_2/convolution: 3d0e25e4
block_1a_bn_2/batchnorm/mul_1: 3e1b2284
block_1a_bn_2/batchnorm/add_1: 3e27a50c
block_1a_conv_shortcut/convolution: 3d07e19f
block_1a_bn_shortcut/batchnorm/mul_1: 3e4329e4
block_1a_bn_shortcut/batchnorm/add_1: 3e267046
add_1/add: 3e8664a5
block_1a_relu/Relu: 3e5662e0
block_1b_conv_1/convolution: 3dc052e0
block_1b_bn_1/batchnorm/mul_1: 3e35dbad
block_1b_bn_1/batchnorm/add_1: 3e4eeb66
block_1b_relu_1/Relu: 3d9d6c94
block_1b_conv_2/convolution: 3d0fbcb6
block_1b_bn_2/batchnorm/mul_1: 3e34c05a
block_1b_bn_2/batchnorm/add_1: 3e208c17
block_1b_conv_shortcut/convolution: 3d8cab3a
block_1b_bn_shortcut/batchnorm/mul_1: 3e1ee8eb
block_1b_bn_shortcut/batchnorm/add_1: 3e2bd3f0
add_2/add: 3e89f02f
block_1b_relu/Relu: 3e82ae94
block_2a_conv_1/convolution: 3dc2a196
block_2a_bn_1/batchnorm/mul_1: 3e41c143
block_2a_bn_1/batchnorm/add_1: 3e3bd0c4
block_2a_relu_1/Relu: 3de96519
block_2a_conv_2/convolution: 3d5179ad
block_2a_bn_2/batchnorm/mul_1: 3e45de62
block_2a_bn_2/batchnorm/add_1: 3e244e5a
block_2a_conv_shortcut/convolution: 3d147b00
block_2a_bn_shortcut/batchnorm/mul_1: 3e202266
block_2a_bn_shortcut/batchnorm/add_1: 3e07c5c4
add_3/add: 3e668457
block_2a_relu/Relu: 3e12b525
block_2b_conv_1/convolution: 3dc2a8de
block_2b_bn_1/batchnorm/mul_1: 3e6cd86f
block_2b_bn_1/batchnorm/add_1: 3e4e9354
block_2b_relu_1/Relu: 3dacb202
block_2b_conv_2/convolution: 3c8467f3
block_2b_bn_2/batchnorm/mul_1: 3e0c87da
block_2b_bn_2/batchnorm/add_1: 3e29f276
block_2b_conv_shortcut/convolution: 3d0a6f4c
block_2b_bn_shortcut/batchnorm/mul_1: 3e09be17
block_2b_bn_shortcut/batchnorm/add_1: 3e1908be
add_4/add: 3e42e88a
block_2b_relu/Relu: 3e4aefc7
block_3a_conv_1/convolution: 3d8af92a
block_3a_bn_1/batchnorm/mul_1: 3e14d2f8
block_3a_bn_1/batchnorm/add_1: 3e098089
block_3a_relu_1/Relu: 3de75462
block_3a_conv_2/convolution: 3cfc8e63
block_3a_bn_2/batchnorm/mul_1: 3e518d59
block_3a_bn_2/batchnorm/add_1: 3e3317a1
block_3a_conv_shortcut/convolution: 3ca55583
block_3a_bn_shortcut/batchnorm/mul_1: 3dc49a53
block_3a_bn_shortcut/batchnorm/add_1: 3d92e0f6
add_5/add: 3e524e05
block_3a_relu/Relu: 3e005c32
block_3b_conv_1/convolution: 3d8fe69e
block_3b_bn_1/batchnorm/mul_1: 3e1c0ca8
block_3b_bn_1/batchnorm/add_1: 3e066868
block_3b_relu_1/Relu: 3d91edb3
block_3b_conv_2/convolution: 3c91c2bf
block_3b_bn_2/batchnorm/mul_1: 3e4f3075
block_3b_bn_2/batchnorm/add_1: 3e2b599f
block_3b_conv_shortcut/convolution: 3cc371dd
block_3b_bn_shortcut/batchnorm/mul_1: 3e0c2654
block_3b_bn_shortcut/batchnorm/add_1: 3e06cab0
add_6/add: 3e5e0296
block_3b_relu/Relu: 3e559ca7
rpn_conv1/convolution: 3d7dc8e1
rpn_conv1/BiasAdd: 3d81b966
rpn_conv1/Relu: 3d808fc3
rpn_out_class/convolution: 3e2cea2f
rpn_out_class/BiasAdd: 3e2a1522
rpn_out_class/Sigmoid: 3a9fbede
rpn_out_regress/convolution: 3c4784eb
rpn_out_regress/BiasAdd: 3c919039
proposal: 3c010a14
nms_inputs_1/strided_slice_1: 3c0dc264
nms_inputs_1/strided_slice_2: 3c0e2253
nms_inputs_1/strided_slice_3: 3c010a14
nms_inputs_1/strided_slice_4: 3c010a13
nms_inputs_1/concat: 3c010a14
nms_inputs_1/Reshape_1: 3c010a14
nms_inputs_1/prior_data: 3c010a14
roi_pooling_conv_1/CropAndResize_new: 3df2e5b6
time_distributed_1/convolution: 3dbb13d3
time_distributed_2/batchnorm/mul_1: 3e1e7afd
time_distributed_2/batchnorm/add_1: 3e12b10e
block_4a_relu_1/Relu: 3dcadd90
time_distributed_3/convolution: 3cbcf5e1
time_distributed_4/batchnorm/mul_1: 3e5339d1
time_distributed_4/batchnorm/add_1: 3e520287
time_distributed_5/convolution: 3cb2c749
time_distributed_6/batchnorm/mul_1: 3e0ebced
time_distributed_6/batchnorm/add_1: 3e11a73f
add_7/add: 3e6707ea
block_4a_relu/Relu: 3e0772f5
time_distributed_7/convolution: 3d1ac0ad
time_distributed_8/batchnorm/mul_1: 3e3a6ea5
time_distributed_8/batchnorm/add_1: 3e3d5f8f
block_4b_relu_1/Relu: 3dd2cb0d
time_distributed_9/convolution: 3c82e534
time_distributed_10/batchnorm/mul_1: 3f21c639
time_distributed_10/batchnorm/add_1: 3f0cb7f6
time_distributed_11/convolution: 3c1852f8
time_distributed_12/batchnorm/mul_1: 3e5a7e54
time_distributed_12/batchnorm/add_1: 3e572a95
add_8/add: 3f269181
block_4b_relu/Relu: 3ec69b2c
time_distributed_flatten/Reshape_1: 3ec69b2c
dense_regress_td/MatMul: 3d199b9c
dense_regress_td/BiasAdd: 3d0d0ed9
nms_inputs_1/Reshape_2: 3d0d0ed9
nms_inputs_1/strided_slice_5: 3d028ebd
nms_inputs_1/mul: 3b50e462
nms_inputs_1/strided_slice_6: 3d22f4d6
nms_inputs_1/mul_1: 3b825d78
nms_inputs_1/strided_slice_7: 3d02c2a4
nms_inputs_1/mul_2: 3bd1376e
nms_inputs_1/strided_slice_8: 3d13b379
nms_inputs_1/mul_3: 3bec525b
nms_inputs_1/concat_1: 3be1b15b
nms_inputs_1/strided_slice_9: 3ba90fb0
nms_inputs_1/concat_2: 3bbb4aa6
nms_inputs_1/loc_data: 3bbb4aa6
dense_class_td/MatMul: 3e3bd581
dense_class_td/BiasAdd: 3e38a5b7
dense_class_td/Softmax: 3c010a14
nms_inputs_1/conf_data: 3c010a14
NMS: 3c012a55
NMS_1: 0
