TRT-8205-EntropyCalibration2
input_image: 3f7a9a8a
conv1/convolution: 40497ff3
bn_conv1/batchnorm/mul_1: 3deef433
bn_conv1/batchnorm/add_1: 3e01dd07
activation_1/Relu: 3dc0df73
block_1a_conv_1/convolution: 3d82e2b4
block_1a_bn_1/batchnorm/mul_1: 3dfaecb6
block_1a_bn_1/batchnorm/add_1: 3e2780c9
block_1a_relu_1/Relu: 3d945ca9
block_1a_conv_2/convolution: 3d1472ab
block_1a_bn_2/batchnorm/mul_1: 3e1a5628
block_1a_bn_2/batchnorm/add_1: 3e2f80d9
block_1a_conv_shortcut/convolution: 3d0748f3
block_1a_bn_shortcut/batchnorm/mul_1: 3e26ce74
block_1a_bn_shortcut/batchnorm/add_1: 3e32aed4
add_1/add: 3e8587bf
block_1a_relu/Relu: 3e8a7e69
block_1b_conv_1/convolution: 3dbd70e4
block_1b_bn_1/batchnorm/mul_1: 3e35232c
block_1b_bn_1/batchnorm/add_1: 3e4f9139
block_1b_relu_1/Relu: 3d7c066a
block_1b_conv_2/convolution: 3cf86eb5
block_1b_bn_2/batchnorm/mul_1: 3e460cb2
block_1b_bn_2/batchnorm/add_1: 3e3a2060
block_1b_conv_shortcut/convolution: 3d3bc9a7
block_1b_bn_shortcut/batchnorm/mul_1: 3e3aeebc
block_1b_bn_shortcut/batchnorm/add_1: 3e3b30ec
add_2/add: 3e92f698
block_1b_relu/Relu: 3e8164c9
block_2a_conv_1/convolution: 3ddd5f16
block_2a_bn_1/batchnorm/mul_1: 3e40c903
block_2a_bn_1/batchnorm/add_1: 3e159cec
block_2a_relu_1/Relu: 3de89f25
block_2a_conv_2/convolution: 3d79f431
block_2a_bn_2/batchnorm/mul_1: 3e45dbe7
block_2a_bn_2/batchnorm/add_1: 3e4163ae
block_2a_conv_shortcut/convolution: 3d0c950f
block_2a_bn_shortcut/batchnorm/mul_1: 3e1f2ae4
block_2a_bn_shortcut/batchnorm/add_1: 3e1150f0
add_3/add: 3e9994bf
block_2a_relu/Relu: 3e115fbb
block_2b_conv_1/convolution: 3dd82e82
block_2b_bn_1/batchnorm/mul_1: 3e6cf5ec
block_2b_bn_1/batchnorm/add_1: 3e86cca4
block_2b_relu_1/Relu: 3db0a1be
block_2b_conv_2/convolution: 3c910fde
block_2b_bn_2/batchnorm/mul_1: 3e0c5558
block_2b_bn_2/batchnorm/add_1: 3e26ade2
block_2b_conv_shortcut/convolution: 3d09cece
block_2b_bn_shortcut/batchnorm/mul_1: 3e094ed8
block_2b_bn_shortcut/batchnorm/add_1: 3e00c77b
add_4/add: 3e4309c8
block_2b_relu/Relu: 3e46dc1c
block_3a_conv_1/convolution: 3d8a955d
block_3a_bn_1/batchnorm/mul_1: 3dfccade
block_3a_bn_1/batchnorm/add_1: 3e03ceec
block_3a_relu_1/Relu: 3de7f6fe
block_3a_conv_2/convolution: 3cfce8ae
block_3a_bn_2/batchnorm/mul_1: 3e36c4e7
block_3a_bn_2/batchnorm/add_1: 3e23dc28
block_3a_conv_shortcut/convolution: 3cb282d1
block_3a_bn_shortcut/batchnorm/mul_1: 3da94037
block_3a_bn_shortcut/batchnorm/add_1: 3dbeb722
add_5/add: 3e53e25e
block_3a_relu/Relu: 3e001027
block_3b_conv_1/convolution: 3d8ff36d
block_3b_bn_1/batchnorm/mul_1: 3e1b5a0c
block_3b_bn_1/batchnorm/add_1: 3e067ce2
block_3b_relu_1/Relu: 3dac0fb5
block_3b_conv_2/convolution: 3c863bb0
block_3b_bn_2/batchnorm/mul_1: 3e454246
block_3b_bn_2/batchnorm/add_1: 3e2acfe1
block_3b_conv_shortcut/convolution: 3cb5d003
block_3b_bn_shortcut/batchnorm/mul_1: 3e0908c2
block_3b_bn_shortcut/batchnorm/add_1: 3e0c5472
add_6/add: 3e55d248
block_3b_relu/Relu: 3e60114d
rpn_conv1/convolution: 3d7d02ee
rpn_conv1/BiasAdd: 3d802dc4
rpn_conv1/Relu: 3d802dc4
rpn_out_class/convolution: 3e2ceb30
rpn_out_class/BiasAdd: 3e2a42fd
rpn_out_class/Sigmoid: 3a9fb98b
rpn_out_regress/convolution: 3c4743fe
rpn_out_regress/BiasAdd: 3c91adff
proposal: 3c010a14
nms_inputs_1/strided_slice_1: 3c010a14
nms_inputs_1/strided_slice_2: 3c010a14
nms_inputs_1/strided_slice_3: 3c010a14
nms_inputs_1/strided_slice_4: 3c010a14
nms_inputs_1/concat: 3c010a14
nms_inputs_1/Reshape_1: 3c010a14
nms_inputs_1/prior_data: 3c010a14
roi_pooling_conv_1/CropAndResize_new: 3dfa49ea
time_distributed_1/convolution: 3dad853a
time_distributed_2/batchnorm/mul_1: 3e1c3249
time_distributed_2/batchnorm/add_1: 3e12ca91
block_4a_relu_1/Relu: 3dd15d3a
time_distributed_3/convolution: 3cc05718
time_distributed_4/batchnorm/mul_1: 3e56def8
time_distributed_4/batchnorm/add_1: 3e4ce76f
time_distributed_5/convolution: 3cb667f9
time_distributed_6/batchnorm/mul_1: 3e0e36f3
time_distributed_6/batchnorm/add_1: 3e0e1a1d
add_7/add: 3e71450d
block_4a_relu/Relu: 3e0db34b
time_distributed_7/convolution: 3d1c0db9
time_distributed_8/batchnorm/mul_1: 3e4697f9
time_distributed_8/batchnorm/add_1: 3e40d489
block_4b_relu_1/Relu: 3ddb4ef6
time_distributed_9/convolution: 3c787ded
time_distributed_10/batchnorm/mul_1: 3f2285a8
time_distributed_10/batchnorm/add_1: 3f15d030
time_distributed_11/convolution: 3c1e9c11
time_distributed_12/batchnorm/mul_1: 3e59f9bb
time_distributed_12/batchnorm/add_1: 3e56397c
add_8/add: 3f1fee57
block_4b_relu/Relu: 3ed63c49
time_distributed_flatten/Reshape_1: 3ed63c49
dense_regress_td/MatMul: 3d19d3f4
dense_regress_td/BiasAdd: 3d1cc647
nms_inputs_1/Reshape_2: 3d1cc647
nms_inputs_1/strided_slice_5: 3d0d08a0
nms_inputs_1/mul: 3bc4a1ff
nms_inputs_1/strided_slice_6: 3d1e7789
nms_inputs_1/mul_1: 3bc4a1ff
nms_inputs_1/strided_slice_7: 3d02bee9
nms_inputs_1/mul_2: 3bc4a1ff
nms_inputs_1/strided_slice_8: 3d12e13e
nms_inputs_1/mul_3: 3bc4a1ff
nms_inputs_1/concat_1: 3bc4a1ff
nms_inputs_1/strided_slice_9: 3bc4a1ff
nms_inputs_1/concat_2: 3bc4a1ff
nms_inputs_1/loc_data: 3bc4a1ff
dense_class_td/MatMul: 3e480a08
dense_class_td/BiasAdd: 3e38b78d
dense_class_td/Softmax: 3c010a14
nms_inputs_1/conf_data: 3c010a14
NMS: 3c012a55
NMS_1: 0
