TRT-8001-EntropyCalibration2
Input: 3f9849a2
conv1/convolution: 3f544bbd
bn_conv1/batchnorm/mul_1: 3d8985c3
bn_conv1/batchnorm/add_1: 3da28b2b
activation_1/Relu: 3d7625d3
block_1a_conv_1/convolution: 3e701df1
block_1a_bn_1/batchnorm/mul_1: 3e069d60
block_1a_bn_1/batchnorm/add_1: 3dd4e623
block_1a_relu_1/Relu: 3ddd702c
block_1a_conv_2/convolution: 3e515e22
block_1a_bn_2/batchnorm/mul_1: 3df253c3
block_1a_bn_2/batchnorm/add_1: 3dcdd8dc
block_1a_conv_shortcut/convolution: 3d9be35e
block_1a_bn_shortcut/batchnorm/mul_1: 3d839b0c
block_1a_bn_shortcut/batchnorm/add_1: 3d630c41
add_1/add: 3de0fcef
block_1a_relu/Relu: 3dbc8be8
block_1b_conv_1/convolution: 3e40bdd1
block_1b_bn_1/batchnorm/mul_1: 3dd5a352
block_1b_bn_1/batchnorm/add_1: 3dbe244f
block_1b_relu_1/Relu: 3d83a314
block_1b_conv_2/convolution: 3dc0849c
block_1b_bn_2/batchnorm/mul_1: 3dd6f691
block_1b_bn_2/batchnorm/add_1: 3db3ed09
block_1b_conv_shortcut/convolution: 3da7a60c
block_1b_bn_shortcut/batchnorm/mul_1: 3dbb6c91
block_1b_bn_shortcut/batchnorm/add_1: 3d9e26ca
add_2/add: 3dfc81c6
block_1b_relu/Relu: 3dec87f8
block_2a_conv_1/convolution: 3e3c3a55
block_2a_bn_1/batchnorm/mul_1: 3dab8b99
block_2a_bn_1/batchnorm/add_1: 3d9793ff
block_2a_relu_1/Relu: 3d85ac39
block_2a_conv_2/convolution: 3dcd3d7a
block_2a_bn_2/batchnorm/mul_1: 3dbcf804
block_2a_bn_2/batchnorm/add_1: 3da74a29
block_2a_conv_shortcut/convolution: 3db24d3a
block_2a_bn_shortcut/batchnorm/mul_1: 3d63d68f
block_2a_bn_shortcut/batchnorm/add_1: 3d563992
add_3/add: 3dc8e127
block_2a_relu/Relu: 3dd8588f
block_2b_conv_1/convolution: 3e398148
block_2b_bn_1/batchnorm/mul_1: 3d9e4557
block_2b_bn_1/batchnorm/add_1: 3d86f331
block_2b_relu_1/Relu: 3d68151a
block_2b_conv_2/convolution: 3da7981d
block_2b_bn_2/batchnorm/mul_1: 3db483f2
block_2b_bn_2/batchnorm/add_1: 3d92437e
block_2b_conv_shortcut/convolution: 3db81262
block_2b_bn_shortcut/batchnorm/mul_1: 3d6e7d56
block_2b_bn_shortcut/batchnorm/add_1: 3d602b52
add_4/add: 3db961db
block_2b_relu/Relu: 3dc3342e
dssd_large_conv_0_block_4/convolution: 3df4d44f
dssd_large_bn_0_block_4/batchnorm/mul_1: 3da9a4b7
dssd_large_bn_0_block_4/batchnorm/add_1: 3d81d73c
dssd_large_relu_0_block_4/Relu: 3d7572f3
dssd_large_conv_1_block_4/convolution: 3dc45c91
dssd_large_bn_1_block_4/batchnorm/mul_1: 3d7df5e6
dssd_large_bn_1_block_4/batchnorm/add_1: 3d503eab
block_3a_conv_1/convolution: 3de40898
block_3a_bn_1/batchnorm/mul_1: 3d87b67b
block_3a_bn_1/batchnorm/add_1: 3d722acc
block_3a_relu_1/Relu: 3d7ec31c
block_3a_conv_2/convolution: 3db552c3
block_3a_bn_2/batchnorm/mul_1: 3d9bc8f1
block_3a_bn_2/batchnorm/add_1: 3d969b60
block_3a_conv_shortcut/convolution: 3d7c87c4
block_3a_bn_shortcut/batchnorm/mul_1: 3d3d92e0
block_3a_bn_shortcut/batchnorm/add_1: 3d2d24a5
add_5/add: 3db49d4c
block_3a_relu/Relu: 3dc9418f
block_3b_conv_1/convolution: 3e20b5d1
block_3b_bn_1/batchnorm/mul_1: 3d8ffb5f
block_3b_bn_1/batchnorm/add_1: 3d80c598
block_3b_relu_1/Relu: 3d5c9cd7
block_3b_conv_2/convolution: 3d9745b4
block_3b_bn_2/batchnorm/mul_1: 3d87900f
block_3b_bn_2/batchnorm/add_1: 3d61b44f
block_3b_conv_shortcut/convolution: 3dc1fc4d
block_3b_bn_shortcut/batchnorm/mul_1: 3d824548
block_3b_bn_shortcut/batchnorm/add_1: 3d7ccf6b
add_6/add: 3db0e2f6
block_3b_relu/Relu: 3dbfc0d8
block_4a_conv_1/convolution: 3dee9872
block_4a_bn_1/batchnorm/mul_1: 3d9d9b98
block_4a_bn_1/batchnorm/add_1: 3d8216f9
block_4a_relu_1/Relu: 3d4dd6dc
block_4a_conv_2/convolution: 3d8da9e1
block_4a_bn_2/batchnorm/mul_1: 3d905f87
block_4a_bn_2/batchnorm/add_1: 3d658d27
block_4a_conv_shortcut/convolution: 3d8cca30
block_4a_bn_shortcut/batchnorm/mul_1: 3d6ed6aa
block_4a_bn_shortcut/batchnorm/add_1: 3d57dd92
add_7/add: 3da3b919
block_4a_relu/Relu: 3d9f912c
block_4b_conv_1/convolution: 3ddf15a5
block_4b_bn_1/batchnorm/mul_1: 3d851739
block_4b_bn_1/batchnorm/add_1: 3d5e7f19
block_4b_relu_1/Relu: 3d3d5233
block_4b_conv_2/convolution: 3d8504ae
block_4b_bn_2/batchnorm/mul_1: 3d833157
block_4b_bn_2/batchnorm/add_1: 3d50405b
block_4b_conv_shortcut/convolution: 3dc0fabf
block_4b_bn_shortcut/batchnorm/mul_1: 3d48ca5a
block_4b_bn_shortcut/batchnorm/add_1: 3d336855
add_8/add: 3d88b32d
block_4b_relu/Relu: 3d88b32d
ssd_expand_block_0_conv_0/convolution: 3de422e3
ssd_expand_block_0_conv_0/BiasAdd: 3de58028
ssd_expand_block_0_relu_0/Relu: 3d80a736
ssd_expand_block_0_conv_1/convolution: 3dc6f1f2
ssd_expand_block_0_bn_1/batchnorm/mul_1: 3d9db651
ssd_expand_block_0_bn_1/batchnorm/add_1: 3d719275
ssd_expand_block_0_relu_1/Relu: 3d7373b8
dssd_large_conv_0_block_3/convolution: 3da02604
dssd_large_bn_0_block_3/batchnorm/mul_1: 3d916548
dssd_large_bn_0_block_3/batchnorm/add_1: 3d68c5b7
dssd_large_relu_0_block_3/Relu: 3d522746
dssd_large_conv_1_block_3/convolution: 3dbd454c
dssd_large_bn_1_block_3/batchnorm/mul_1: 3d66d86a
dssd_large_bn_1_block_3/batchnorm/add_1: 3d6f79c1
ssd_expand_block_1_conv_0/convolution: 3d4acab0
ssd_expand_block_1_conv_0/BiasAdd: 3d47b08e
ssd_expand_block_1_relu_0/Relu: 3d512149
ssd_expand_block_1_conv_1/convolution: 3d82e204
ssd_expand_block_1_bn_1/batchnorm/mul_1: 3dabe990
ssd_expand_block_1_bn_1/batchnorm/add_1: 3d832e08
ssd_expand_block_1_relu_1/Relu: 3d77eea4
dssd_large_conv_0_block_2/convolution: 3da2d671
dssd_large_bn_0_block_2/batchnorm/mul_1: 3d9eeeae
dssd_large_bn_0_block_2/batchnorm/add_1: 3d7e7ae3
dssd_large_relu_0_block_2/Relu: 3d522958
dssd_large_conv_1_block_2/convolution: 3d95a1ed
dssd_large_bn_1_block_2/batchnorm/mul_1: 3d430911
dssd_large_bn_1_block_2/batchnorm/add_1: 3d29fa44
ssd_expand_block_2_conv_0/convolution: 3d8daaed
ssd_expand_block_2_conv_0/BiasAdd: 3d8a559a
ssd_expand_block_2_relu_0/Relu: 3d93947c
ssd_expand_block_2_conv_1/convolution: 3db0029e
ssd_expand_block_2_bn_1/batchnorm/mul_1: 3da22a4d
ssd_expand_block_2_bn_1/batchnorm/add_1: 3d7ddd04
ssd_expand_block_2_relu_1/Relu: 3d6c3df8
dssd_large_conv_0_block_1/convolution: 3d7e2e01
dssd_large_bn_0_block_1/batchnorm/mul_1: 3d843085
dssd_large_bn_0_block_1/batchnorm/add_1: 3d57bbfb
dssd_large_relu_0_block_1/Relu: 3d331ddb
dssd_large_conv_1_block_1/convolution: 3d75cc96
dssd_large_bn_1_block_1/batchnorm/mul_1: 3d388ea7
dssd_large_bn_1_block_1/batchnorm/add_1: 3d1c2ac9
ssd_expand_block_3_conv_0/convolution: 3d4c940c
ssd_expand_block_3_conv_0/BiasAdd: 3d46da3b
ssd_expand_block_3_relu_0/Relu: 3d658635
ssd_expand_block_3_conv_1/convolution: 3d673098
ssd_expand_block_3_bn_1/batchnorm/mul_1: 3d8675b6
ssd_expand_block_3_bn_1/batchnorm/add_1: 3d57f83e
ssd_expand_block_3_relu_1/Relu: 3d57f83e
dssd_large_conv_0_block_0/convolution: 3d39fac4
dssd_large_bn_0_block_0/batchnorm/mul_1: 3d5f8072
dssd_large_bn_0_block_0/batchnorm/add_1: 3d372529
dssd_large_relu_0_block_0/Relu: 3d1c1d59
dssd_large_conv_1_block_0/convolution: 3d4f89bc
dssd_large_bn_1_block_0/batchnorm/mul_1: 3d4126db
dssd_large_bn_1_block_0/batchnorm/add_1: 3d3c293b
ssd_expand_block_4_conv_0/convolution: 3d41b50e
ssd_expand_block_4_conv_0/BiasAdd: 3d434984
ssd_expand_block_4_relu_0/Relu: 3d434984
ssd_expand_block_4_conv_1/convolution: 3d5262a5
ssd_expand_block_4_bn_1/batchnorm/mul_1: 3d3de1ee
ssd_expand_block_4_bn_1/batchnorm/add_1: 3d2242ef
ssd_expand_block_4_relu_1/Relu: 3d22a764
(Unnamed Layer* 593) [Deconvolution]_output: 3d0fdfe7
dssd_small_deconv_block_0/conv2d_transpose: 3d0fdfe7
dssd_small_conv_block_0/convolution: 3da46b25
dssd_small_bn_block_0/batchnorm/mul_1: 3d756d03
dssd_small_bn_block_0/batchnorm/add_1: 3d695ce2
dssd_mul_block_0/mul: 3e2c69be
dssd_relu_block_0/Relu: 3e2c69be
(Unnamed Layer* 623) [Deconvolution]_output: 3db94de9
dssd_small_deconv_block_1/conv2d_transpose: 3db94de9
dssd_small_conv_block_1/convolution: 3e5e54f8
dssd_small_bn_block_1/batchnorm/mul_1: 3dd3376e
dssd_small_bn_block_1/batchnorm/add_1: 3dd7e235
dssd_mul_block_1/mul: 3e1f7530
dssd_relu_block_1/Relu: 3e548a8f
(Unnamed Layer* 653) [Deconvolution]_output: 3d7b545b
dssd_small_deconv_block_2/conv2d_transpose: 3d7b545b
dssd_small_conv_block_2/convolution: 3e184380
dssd_small_bn_block_2/batchnorm/mul_1: 3dd5cfd8
dssd_small_bn_block_2/batchnorm/add_1: 3dd0ee5b
dssd_mul_block_2/mul: 3e26a0fa
dssd_relu_block_2/Relu: 3e26a0fa
(Unnamed Layer* 683) [Deconvolution]_output: 3d8c3586
dssd_small_deconv_block_3/conv2d_transpose: 3d8c3586
dssd_small_conv_block_3/convolution: 3e5364fc
dssd_small_bn_block_3/batchnorm/mul_1: 3de259f4
dssd_small_bn_block_3/batchnorm/add_1: 3de08f86
dssd_mul_block_3/mul: 3eebd33b
dssd_relu_block_3/Relu: 3eebd33b
(Unnamed Layer* 713) [Deconvolution]_output: 3dcf33c7
dssd_small_deconv_block_4/conv2d_transpose: 3dcf33c7
dssd_small_conv_block_4/convolution: 3e488532
dssd_small_bn_block_4/batchnorm/mul_1: 3d988cf9
dssd_small_bn_block_4/batchnorm/add_1: 3e06353c
dssd_mul_block_4/mul: 3ee28e92
dssd_relu_block_4/Relu: 3ee28e92
ssd_mpred_conv_0_block_0/convolution: 3e346d25
ssd_mpred_bn_0_block_0/batchnorm/mul_1: 3deb36ff
ssd_mpred_bn_0_block_0/batchnorm/add_1: 3e00296a
ssd_mpred_relu_0_block_0/Relu: 3e00296a
ssd_mpred_conv_1_block_0/convolution: 3e1586e9
ssd_mpred_bn_1_block_0/batchnorm/mul_1: 3e1fc4e2
ssd_mpred_bn_1_block_0/batchnorm/add_1: 3dff3209
ssd_mpred_relu_1_block_0/Relu: 3dff3209
ssd_mpred_conv_2_block_0/convolution: 3da80a1b
ssd_mpred_bn_2_block_0/batchnorm/mul_1: 3e14413f
ssd_mpred_bn_2_block_0/batchnorm/add_1: 3e0276ac
ssd_mpred_conv_3_block_0/convolution: 3deece17
ssd_mpred_bn_3_block_0/batchnorm/mul_1: 3dbcfa21
ssd_mpred_bn_3_block_0/batchnorm/add_1: 3dfcf5b2
ssd_mpred_add_block_0/add: 3e354fb2
ssd_mpred_relu_3_block_0/Relu: 3e32827b
ssd_loc_0/convolution: 3ee0cbd4
ssd_loc_0/BiasAdd: 3ee103d9
ssd_anchor_0/Const: 3a4ef3e4
FirstDimTile_0: 3a4ef3e4
anchor_reshape_0/Reshape: 3a4ef3e4
ssd_mpred_conv_0_block_1/convolution: 3e84a74d
ssd_mpred_bn_0_block_1/batchnorm/mul_1: 3da751bb
ssd_mpred_bn_0_block_1/batchnorm/add_1: 3dc702f2
ssd_mpred_relu_0_block_1/Relu: 3da8864f
ssd_mpred_conv_1_block_1/convolution: 3de001ea
ssd_mpred_bn_1_block_1/batchnorm/mul_1: 3e0958bf
ssd_mpred_bn_1_block_1/batchnorm/add_1: 3de2486a
ssd_mpred_relu_1_block_1/Relu: 3e075d10
ssd_mpred_conv_2_block_1/convolution: 3d95c8ab
ssd_mpred_bn_2_block_1/batchnorm/mul_1: 3deea548
ssd_mpred_bn_2_block_1/batchnorm/add_1: 3dc4cef0
ssd_mpred_conv_3_block_1/convolution: 3e3ff6da
ssd_mpred_bn_3_block_1/batchnorm/mul_1: 3db96164
ssd_mpred_bn_3_block_1/batchnorm/add_1: 3df1e287
ssd_mpred_add_block_1/add: 3e413162
ssd_mpred_relu_3_block_1/Relu: 3e413162
ssd_loc_1/convolution: 3e321af6
ssd_loc_1/BiasAdd: 3e2f21ab
ssd_anchor_1/Const: 3a4fe8c1
FirstDimTile_1: 3a4fe8c1
anchor_reshape_1/Reshape: 3a4ef3e4
ssd_mpred_conv_0_block_2/convolution: 3e9ad900
ssd_mpred_bn_0_block_2/batchnorm/mul_1: 3da994e5
ssd_mpred_bn_0_block_2/batchnorm/add_1: 3dca18d1
ssd_mpred_relu_0_block_2/Relu: 3dde3542
ssd_mpred_conv_1_block_2/convolution: 3df4d732
ssd_mpred_bn_1_block_2/batchnorm/mul_1: 3e099301
ssd_mpred_bn_1_block_2/batchnorm/add_1: 3dde2b69
ssd_mpred_relu_1_block_2/Relu: 3dde2b69
ssd_mpred_conv_2_block_2/convolution: 3d7e688d
ssd_mpred_bn_2_block_2/batchnorm/mul_1: 3e1da752
ssd_mpred_bn_2_block_2/batchnorm/add_1: 3de844f2
ssd_mpred_conv_3_block_2/convolution: 3e3cfeaa
ssd_mpred_bn_3_block_2/batchnorm/mul_1: 3db017fb
ssd_mpred_bn_3_block_2/batchnorm/add_1: 3ddcdafe
ssd_mpred_add_block_2/add: 3e3294f3
ssd_mpred_relu_3_block_2/Relu: 3e31d2a3
ssd_loc_2/convolution: 3e09c589
ssd_loc_2/BiasAdd: 3e09ea3c
ssd_anchor_2/Const: 3a4fe8c1
FirstDimTile_2: 3a4fe8c1
anchor_reshape_2/Reshape: 3a4ef3e4
ssd_mpred_conv_0_block_3/convolution: 3e85077c
ssd_mpred_bn_0_block_3/batchnorm/mul_1: 3dd2a2cf
ssd_mpred_bn_0_block_3/batchnorm/add_1: 3dd75675
ssd_mpred_relu_0_block_3/Relu: 3dd5f844
ssd_mpred_conv_1_block_3/convolution: 3dcc161c
ssd_mpred_bn_1_block_3/batchnorm/mul_1: 3dd0cbd6
ssd_mpred_bn_1_block_3/batchnorm/add_1: 3dbf5007
ssd_mpred_relu_1_block_3/Relu: 3dc105ef
ssd_mpred_conv_2_block_3/convolution: 3d815f5b
ssd_mpred_bn_2_block_3/batchnorm/mul_1: 3dde157e
ssd_mpred_bn_2_block_3/batchnorm/add_1: 3dcd6009
ssd_mpred_conv_3_block_3/convolution: 3e01433f
ssd_mpred_bn_3_block_3/batchnorm/mul_1: 3dd3d11d
ssd_mpred_bn_3_block_3/batchnorm/add_1: 3dcea542
ssd_mpred_add_block_3/add: 3e25ac79
ssd_mpred_relu_3_block_3/Relu: 3e1f6738
ssd_loc_3/convolution: 3dce8cb9
ssd_loc_3/BiasAdd: 3dd3daae
ssd_anchor_3/Const: 3a4fe8c1
FirstDimTile_3: 3a4fe8c1
anchor_reshape_3/Reshape: 3a4ef3e4
ssd_mpred_conv_0_block_4/convolution: 3e512db9
ssd_mpred_bn_0_block_4/batchnorm/mul_1: 3d99b690
ssd_mpred_bn_0_block_4/batchnorm/add_1: 3d9dbe1c
ssd_mpred_relu_0_block_4/Relu: 3d9d0874
ssd_mpred_conv_1_block_4/convolution: 3dddb4ac
ssd_mpred_bn_1_block_4/batchnorm/mul_1: 3da642a7
ssd_mpred_bn_1_block_4/batchnorm/add_1: 3d97e867
ssd_mpred_relu_1_block_4/Relu: 3d93f543
ssd_mpred_conv_2_block_4/convolution: 3d58f981
ssd_mpred_bn_2_block_4/batchnorm/mul_1: 3da4c0ff
ssd_mpred_bn_2_block_4/batchnorm/add_1: 3d9e9907
ssd_mpred_conv_3_block_4/convolution: 3e038af8
ssd_mpred_bn_3_block_4/batchnorm/mul_1: 3d9c53a8
ssd_mpred_bn_3_block_4/batchnorm/add_1: 3d965fea
ssd_mpred_add_block_4/add: 3e06abbd
ssd_mpred_relu_3_block_4/Relu: 3e07a2e1
ssd_loc_4/convolution: 3d6faba4
ssd_loc_4/BiasAdd: 3d5db3eb
ssd_anchor_4/Const: 3a4fe8c1
FirstDimTile_4: 3a4fe8c1
anchor_reshape_4/Reshape: 3a4ef3e4
ssd_mpred_conv_0_block_5/convolution: 3d5c32e5
ssd_mpred_bn_0_block_5/batchnorm/mul_1: 3d3534ed
ssd_mpred_bn_0_block_5/batchnorm/add_1: 3d1a62dc
ssd_mpred_relu_0_block_5/Relu: 3d194021
ssd_mpred_conv_1_block_5/convolution: 3d22aabb
ssd_mpred_bn_1_block_5/batchnorm/mul_1: 3d32023c
ssd_mpred_bn_1_block_5/batchnorm/add_1: 3d0ca90b
ssd_mpred_relu_1_block_5/Relu: 3d08851f
ssd_mpred_conv_2_block_5/convolution: 3cf94608
ssd_mpred_bn_2_block_5/batchnorm/mul_1: 3d3637c3
ssd_mpred_bn_2_block_5/batchnorm/add_1: 3d1f9c56
ssd_mpred_conv_3_block_5/convolution: 3d0992e4
ssd_mpred_bn_3_block_5/batchnorm/mul_1: 3d2d7b7d
ssd_mpred_bn_3_block_5/batchnorm/add_1: 3d082063
ssd_mpred_add_block_5/add: 3d81d63b
ssd_mpred_relu_3_block_5/Relu: 3d6465c5
ssd_loc_5/convolution: 3d2d40c2
ssd_loc_5/BiasAdd: 3d2f4209
ssd_anchor_5/Const: 3a4fe8c1
FirstDimTile_5: 3a4fe8c1
anchor_reshape_5/Reshape: 3a4ef3e4
mbox_priorbox/concat: 3a4ef3e4
anchor_reshape/Reshape: 3a4ef3e4
(Unnamed Layer* 1159) [Shuffle]_output: 3a4ef3e4
anchor_data/Reshape: 3a4ef3e4
(Unnamed Layer* 1168) [Shuffle]_output: 3ee103d9
loc_reshape_0/Reshape: 3ee103d9
(Unnamed Layer* 1177) [Shuffle]_output: 3e2f21ab
loc_reshape_1/Reshape: 3ee103d9
(Unnamed Layer* 1186) [Shuffle]_output: 3e09ea3c
loc_reshape_2/Reshape: 3ee103d9
(Unnamed Layer* 1195) [Shuffle]_output: 3dd3daae
loc_reshape_3/Reshape: 3ee103d9
(Unnamed Layer* 1204) [Shuffle]_output: 3d5db3eb
loc_reshape_4/Reshape: 3ee103d9
(Unnamed Layer* 1213) [Shuffle]_output: 3d2f4209
loc_reshape_5/Reshape: 3ee103d9
mbox_loc/concat: 3ee103d9
loc_data/Reshape: 3ee103d9
ssd_conf_0/convolution: 3fb94791
ssd_conf_0/BiasAdd: 3f98b1a3
(Unnamed Layer* 1234) [Shuffle]_output: 3f98b1a3
conf_reshape_0/Reshape: 3f792a71
ssd_conf_1/convolution: 3f91cc5e
ssd_conf_1/BiasAdd: 3f83c150
(Unnamed Layer* 1247) [Shuffle]_output: 3f83c150
conf_reshape_1/Reshape: 3f792a71
ssd_conf_2/convolution: 3f2807b5
ssd_conf_2/BiasAdd: 3f1b15c7
(Unnamed Layer* 1260) [Shuffle]_output: 3f1b15c7
conf_reshape_2/Reshape: 3f792a71
ssd_conf_3/convolution: 3eb39113
ssd_conf_3/BiasAdd: 3eaf3cfc
(Unnamed Layer* 1273) [Shuffle]_output: 3eaf3cfc
conf_reshape_3/Reshape: 3f792a71
ssd_conf_4/convolution: 3e0fe88b
ssd_conf_4/BiasAdd: 3e1141f9
(Unnamed Layer* 1286) [Shuffle]_output: 3e1141f9
conf_reshape_4/Reshape: 3f792a71
ssd_conf_5/convolution: 3dd4a9f6
ssd_conf_5/BiasAdd: 3ddc71dc
(Unnamed Layer* 1299) [Shuffle]_output: 3ddc71dc
conf_reshape_5/Reshape: 3f792a71
mbox_conf/concat: 3f792a71
(Unnamed Layer* 1303) [Shuffle]_output: 3f792a71
mbox_conf_softmax_/Softmax: 3c010a14
(Unnamed Layer* 1312) [Shuffle]_output: 3c010a14
conf_data/Reshape: 3c010a14
NMS: 3d012449
NMS_1: 0
